DEPTH = 32;
WIDTH = 64;
ADDRESS_RADIX = HEX;
DATA_RADIX = BIN;
CONTENT
BEGIN
0 : 0000110100000100000000010110010111110110010111110000001001001101;
1 : 0000100010011010000000100110101000001100010001000000100111011011;
2 : 0000001111111111000011100000011111001010011111100000101011110010;
3 : 0001010101011100000000101101011100010101101101000001010111010101;
4 : 0000000000000000000000000000000000000000000000000000000000000000;
5 : 0000000000000000000000000000000000000000000000000000000000000000;
6 : 0000000000000000000000000000000000000000000000000000000000000000;
7 : 0000000000000000000000000000000000000000000000000000000000000000;
8 : 0000000000000000000000000000000000000000000000000000000000000000;
9 : 0000000000000000000000000000000000000000000000000000000000000000;
A : 0000000000000000000000000000000000000000000000000000000000000000;
B : 0000000000000000000000000000000000000000000000000000000000000000;
C : 0000000000000000000000000000000000000000000000000000000000000000;
D : 0000000000000000000000000000000000000000000000000000000000000000;
E : 0000000000000000000000000000000000000000000000000000000000000000;
F : 0000000000000000000000000000000000000000000000000000000000000000;
10 : 0000000000000000000000000000000000000000000000000000000000000000;
11 : 0000000000000000000000000000000000000000000000000000000000000000;
12 : 0000000000000000000000000000000000000000000000000000000000000000;
13 : 0000000000000000000000000000000000000000000000000000000000000000;
14 : 0000000000000000000000000000000000000000000000000000000000000000;
15 : 0000000000000000000000000000000000000000000000000000000000000000;
16 : 0000000000000000000000000000000000000000000000000000000000000000;
17 : 0000000000000000000000000000000000000000000000000000000000000000;
18 : 0000000000000000000000000000000000000000000000000000000000000000;
19 : 0000000000000000000000000000000000000000000000000000000000000000;
1A : 0000000000000000000000000000000000000000000000000000000000000000;
1B : 0000000000000000000000000000000000000000000000000000000000000000;
1C : 0000000000000000000000000000000000000000000000000000000000000000;
1D : 0000000000000000000000000000000000000000000000000000000000000000;
1E : 0000000000000000000000000000000000000000000000000000000000000000;
1F : 0000000000000000000000000000000000000000000000000000000000000000;
END;
